TRT-8003-EntropyCalibration2
input_0: 3cb1ab7d
input.1: 3dd27429
input.3: 3d0ffad6
1113: 3d08e03f
input.7: 3d08e03f
input.9: 3d0b4e38
input.11: 3d1ebeff
1117: 3c938171
input.15: 3c7eb6cb
input.17: 3c7bc5cc
1120: 3c8fd99e
input.21: 3baf437c
input.23: 3d266259
identity.1: 3cf9c5e3
out.1: 3c43ac78
1125: 3d03d008
1126: 3cbb6c53
input.29: 3c42def8
input.31: 3cb5a46f
1129: 3c87f463
input.35: 3c0ecf04
input.37: 3c9e1f3f
1132: 3c9e1f3f
input.41: 3b630c5d
out.3: 3c27bc65
1135: 3ca46822
1136: 3ca46822
input.47: 3c32306a
input.49: 3c8b62a4
1139: 3c8b986c
input.53: 3c1ce97e
input.55: 3caccf4d
1142: 3c662145
input.59: 3b4d92d5
out.5: 3bf56883
1145: 3c6b568d
1146: 3c6b568d
input.65: 3c5507d7
input.67: 3cc0b8a2
1149: 3c8cb816
input.71: 3c42c9ac
input.73: 3c8f5987
1152: 3c896ca4
input.77: 3b92c36a
input.79: 3c1fe98e
identity.3: 3c842026
out.7: 3c5474c2
1157: 3caf7b98
1158: 3cb48767
input.85: 3c826b73
input.87: 3c4e5acd
1161: 3c23fb5f
input.91: 3c2db58f
input.93: 3c8fcf43
1164: 3c94081d
input.97: 3b82bdf9
out.9: 3c3966b3
1167: 3c5f389a
1168: 3c5f389a
input.103: 3c2b7568
input.105: 3c62b21b
1171: 3c715b0c
input.109: 3c105276
input.111: 3c863fea
1174: 3c6d6bc2
input.115: 3b4b0c16
out.11: 3c3f6c5f
1177: 3c995e04
1178: 3caabff1
input.121: 3c15992c
input.123: 3c6eed57
1181: 3c730a02
input.127: 3c185a60
input.129: 3c7ec6da
1184: 3c6e2871
input.133: 3b1c8d25
out.13: 3c22d298
1187: 3c8b6769
1188: 3c8b6769
input.139: 3c1c1230
input.141: 3ca59dab
1191: 3c98cf20
input.145: 3c0ac89d
input.147: 3c81c00f
1194: 3c733906
input.151: 3b56b6ab
input.153: 3bf8abd1
identity: 3c60e9ec
out.15: 3c61f7bc
1199: 3c8b5a4f
1200: 3c9a9461
input.159: 3be9fdf7
input.161: 3c62a6aa
1203: 3c695fdf
input.165: 3c1e6b10
input.167: 3c72035f
1206: 3c62649c
input.171: 3b2b14de
out.17: 3c739c19
1209: 3c8d8737
1210: 3c9216cb
input.177: 3bbb5b44
input.179: 3c656d9c
1213: 3c6ccde6
input.183: 3bfe1c28
input.185: 3c6b0838
1216: 3c67ac1e
input.189: 3b1879af
out.19: 3c400f8e
1219: 3c8d409c
1220: 3c989081
input.195: 3bd17a66
input.197: 3c7b5235
1223: 3c777ebf
input.201: 3c011ef9
input.203: 3c81e9dd
1226: 3c618d7f
input.207: 3b0c0343
out.21: 3c566034
1229: 3c8789eb
1230: 3c8e87ba
input.213: 3bc872b0
input.215: 3c90cf0d
1233: 3c8479d5
input.219: 3bffaef1
input.221: 3c92ebee
1236: 3c7dbd6b
input.225: 3b209c4f
out.23: 3c793c5d
1239: 3c92d821
1240: 3c992194
input.231: 3c0d06dd
input.233: 3ca3fb46
1243: 3c982c60
input.237: 3c22ee6b
input.239: 3c98a4e4
1246: 3c98a4e4
input.243: 3b828e2d
out: 3cd27053
1249: 3cd40a00
1250: 3cdda40d
input.249: 3c794cc9
input.251: 3da0b61f
1253: 3da01659
input.255: 3dbc90c4
input.257: 3de45be4
1256: 3dcecc56
input.261: 3cee3c00
input.263: 3d8ddd30
1259: 3d9bcda7
input.267: 3d429436
input.269: 3d9163ac
1262: 3d9be4e0
input.273: 3cf65db0
input.275: 3d8b7de1
1265: 3d96f0dd
input.279: 3d1ddec7
input.281: 3db80260
1268: 3dc32ec7
input.285: 3cf31f07
input.287: 3d850c57
1271: 3d7d1575
input.291: 3ce34a11
input.293: 3d9c82f9
1274: 3d9d2d69
input.297: 3c9a366a
input.299: 3d481c80
1277: 3d47f2ce
input.303: 3cccd11f
input.305: 3dcfac52
1280: 3dd2f206
1281: 3de179e1
1284: 3de179e1
1285: 3dd5dcc3
1288: 3dea0849
1289: 3d6768db
1292: 3de179e1
1293: 3dea0849
1296: 3dea0849
1297: 3d3fad42
1300: 3de179e1
1301: 3e00c710
1304: 3dea0849
1305: 3d09854a
1308: 3de179e1
1309: 3dfbc08b
1312: 3dea0849
1313: 3cf64647
1316: 3de179e1
1317: 3df74af0
1320: 3dea0849
1321: 3cd91edb
1324: 3de179e1
1325: 3db97090
1328: 3dea0849
output_0: 3de179e1
output_1: 3dea0849
